1111111111010101 
0000000000110111 
0000000100110101 
0000000001100100 
1111111111110100 
1111111111011111 
1111111010011101 
0000000001100100 
0000000010000000 
0000000101100110 
1111111101100110 
0000000011010001 
1111111101001101 
0000000000100101 
1111111101001110 
0000000001101101 
0000000001100111 
0000000000011010 
1111111001101010 
1111111001010101 
0000000010010011 
0000000000010101 
1111111011111110 
1111111100011111 
1111111111000111 
0000000000101001 
1111111100001011 
0000000010000111 
1111111001110100 
0000000000100101 
0000000100111101 
0000000000111101 
1111111111101000 
0000000001111110 
0000000100101001 
0000000110101010 
1111111011111100 
0000000011011000 
0000000001000000 
0000000000111101 
